@00000000
3ca70
00d14
00cdc
3f89a
009da
01991
0304d
3f7ec
00dcf
3e14e
3e729
03003
3d14e
0163e
3e2c9
3cf58
3c4f5
3e411
00fd2
02a51
01e4d
03987
002e4
03192
3ea88
064f8
3dcc5
02466
3c3e5
021be
3c7de
3bc83
3d5a5
022fc
3fcb5
01295
3fe65
01ecf
010c8
3dcd7
3caa1
3f7d7
0169e
02a66
055b0
03084
0440c
03196
3c2e8
00292
02ddf
3f005
3d34e
048d6
3f4bf
3fa0e
02745
03461
3fbcc
0203e
007c3
3fad5
003e9
3f9ad
