@00000000
3e6a6
3ca16
3f4e5
3fd1c
3f040
00e89
3fbbe
3cd9b
0203c
3ed5f
3dc90
02ed2
3ed18
3c330
00ccb
00f55
0240c
3d8d5
3d083
02dfc
3d8d1
0184f
3e861
3e650
02f38
3f0ce
3c700
3fb4d
02799
3d566
03e8b
3e42e
01734
033c5
00a48
3d7bb
01832
026ff
015a8
3f57f
3f00f
00e1f
0372e
3dd67
02d1b
3cfac
0313c
3fa50
3e3ef
3fbd5
0319d
036b2
3d1b5
02def
00c8e
3f943
010d0
01ad4
3f850
013b7
3c768
02390
3e15c
3d5f9
01bb8
3f7f8
3f03d
020c7
3f75e
02f1c
01240
3c40f
3ea02
3ffc2
03176
01a5b
00cbe
02ffa
05036
01e27
3e5c6
3f39d
02de8
3fafe
3fb82
3f87c
01549
3dabb
3cf06
3fe8d
3d716
03008
038ba
03f30
3e644
030d3
3dbac
3f463
3fe90
02c4b
02a95
01c3b
3ee42
3eb85
3ed1b
3fb28
015c1
3eb18
3d4a4
01d09
3e8af
026b4
023c6
3d4b6
00e65
3d53b
02873
3d90d
3cf9a
01560
02f62
3f582
03906
3f4c2
03b31
3ff35
008c5
00cb2
3faa9
3f29a
022f2
3f601
3d8b2
3d21d
03491
02f63
3fe9f
3d5e5
024a2
0082d
3fb35
002fa
3ffe6
3d9d7
3df9f
01f17
01f3d
3f5a0
3f5ef
00d6c
3decc
3fea0
015d3
3fae1
03aa2
021e2
03604
00eab
04006
3b6ae
3da04
3e6da
007fd
0014f
3eae0
3cef8
02c30
3d2bb
3e655
0196d
3b8f0
026e8
0250b
3d9aa
3cbca
00d6e
006bd
3f3fa
3ccd4
3e511
3d39e
3ebd2
3dd18
3de80
0252b
0187f
01326
3ec94
0247d
3eab9
00e3d
02806
3d6fa
01b20
00411
010c6
01fb8
3ef43
02d8e
00f82
01134
3e2a7
028d9
03799
01b42
02a86
3e0f8
3db5a
3dabf
3f77a
02ca2
00b7e
00672
3ccbb
3d239
3e8c3
024cf
3d87a
04bd9
3fe37
01539
03b89
034af
0013b
3c912
3f924
3fdfa
3fdca
00a32
3fca1
000fa
0027f
3fa92
3fc87
010f8
00161
3ffbf
00018
00d68
002c7
