@00000000
3f77d
3f0ec
02d6e
0564f
012f2
00da5
3f99b
3d003
3f885
0315a
0098c
3f62a
3dfee
3e4db
3fe4f
3d684
059f8
01663
002b9
00635
3f29e
3f691
0011c
3fbfc
03837
02f41
3c8f6
00ab4
00bc1
020b3
3f2f4
01da5
3ed45
03524
000e0
05577
00cb3
3fb7d
3f01e
3d900
035e0
05762
00e56
3d5fd
035ab
02dd4
014ce
3d449
3c5a0
04122
3fb4e
00680
3d1a7
02dd8
02b36
3f73a
00ff2
3f93b
3ceae
3f5b3
019ab
01daf
04b3f
02a8a
3f99f
03879
048a8
3fd31
00de9
3e47f
000b7
018ad
039aa
3efa6
041ac
3fcfd
3f7c4
003b5
00767
3f508
00da8
026b6
03140
01048
3ff3d
03a94
02cf4
3df93
3f34d
3f1c1
3e48c
03dec
029c9
0269b
3f159
040fd
0322d
3eaad
3c4b5
3ece5
3f242
3c874
3e62d
031a0
3e767
3fe81
3dcb1
3e954
0258f
028f4
018ea
00f39
3dd4d
3c1d0
3ce71
001bc
3e44c
3ea45
0290b
0169f
00e3a
3f6c5
00970
00863
00f8b
00c59
00715
00328
00142
002d4
00ae0
005bf
00000
014a1
00000
